{
  "num_merges": 1000,
  "merges": [
    [
      "e",
      "</w>"
    ],
    [
      "t",
      "h"
    ],
    [
      "t",
      "</w>"
    ],
    [
      "s",
      "</w>"
    ],
    [
      ",",
      "</w>"
    ],
    [
      "d",
      "</w>"
    ],
    [
      "r",
      "</w>"
    ],
    [
      "y",
      "</w>"
    ],
    [
      "n",
      "</w>"
    ],
    [
      "o",
      "u"
    ],
    [
      ":",
      "</w>"
    ],
    [
      "o",
      "</w>"
    ],
    [
      "a",
      "n"
    ],
    [
      ".",
      "</w>"
    ],
    [
      "i",
      "n"
    ],
    [
      "l",
      "</w>"
    ],
    [
      "h",
      "a"
    ],
    [
      "'",
      "</w>"
    ],
    [
      "e",
      "a"
    ],
    [
      "e",
      "r</w>"
    ],
    [
      "e",
      "r"
    ],
    [
      "th",
      "e</w>"
    ],
    [
      "I",
      "</w>"
    ],
    [
      "i",
      "s</w>"
    ],
    [
      "o",
      "r"
    ],
    [
      "l",
      "l</w>"
    ],
    [
      "f",
      "</w>"
    ],
    [
      "e",
      "n"
    ],
    [
      "y",
      "ou"
    ],
    [
      "an",
      "d</w>"
    ],
    [
      "t",
      "o</w>"
    ],
    [
      "a",
      "r"
    ],
    [
      "o",
      "w"
    ],
    [
      "th",
      "</w>"
    ],
    [
      "m",
      "e</w>"
    ],
    [
      "m",
      "</w>"
    ],
    [
      "o",
      "n"
    ],
    [
      "g",
      "</w>"
    ],
    [
      "w",
      "i"
    ],
    [
      ";",
      "</w>"
    ],
    [
      "e",
      "s"
    ],
    [
      "o",
      "f</w>"
    ],
    [
      "v",
      "e</w>"
    ],
    [
      "i",
      "n</w>"
    ],
    [
      "e",
      "d</w>"
    ],
    [
      "o",
      "r</w>"
    ],
    [
      "in",
      "g</w>"
    ],
    [
      "a",
      "</w>"
    ],
    [
      "h",
      "i"
    ],
    [
      "e",
      "n</w>"
    ],
    [
      "s",
      "t"
    ],
    [
      "e",
      "s</w>"
    ],
    [
      "you",
      "</w>"
    ],
    [
      "h",
      "</w>"
    ],
    [
      "m",
      "y</w>"
    ],
    [
      "m",
      "a"
    ],
    [
      "s",
      "t</w>"
    ],
    [
      "o",
      "n</w>"
    ],
    [
      "h",
      "e</w>"
    ],
    [
      "n",
      "o"
    ],
    [
      "a",
      "t</w>"
    ],
    [
      "k",
      "</w>"
    ],
    [
      "?",
      "</w>"
    ],
    [
      "l",
      "i"
    ],
    [
      "ow",
      "</w>"
    ],
    [
      "c",
      "e</w>"
    ],
    [
      "r",
      "o"
    ],
    [
      "th",
      "e"
    ],
    [
      "n",
      "d</w>"
    ],
    [
      "!",
      "</w>"
    ],
    [
      "no",
      "t</w>"
    ],
    [
      "O",
      "</w>"
    ],
    [
      "t",
      "i"
    ],
    [
      "i",
      "t</w>"
    ],
    [
      "e",
      "l"
    ],
    [
      "th",
      "at</w>"
    ],
    [
      "s",
      "e</w>"
    ],
    [
      "r",
      "i"
    ],
    [
      "A",
      "nd</w>"
    ],
    [
      "er",
      "e</w>"
    ],
    [
      "ha",
      "t</w>"
    ],
    [
      "a",
      "y</w>"
    ],
    [
      "-",
      "</w>"
    ],
    [
      "o",
      "o"
    ],
    [
      "r",
      "e"
    ],
    [
      "l",
      "d</w>"
    ],
    [
      "ou",
      "</w>"
    ],
    [
      "c",
      "h</w>"
    ],
    [
      "e",
      "t</w>"
    ],
    [
      "u",
      "t</w>"
    ],
    [
      "u",
      "r"
    ],
    [
      "a",
      "s</w>"
    ],
    [
      "k",
      "e</w>"
    ],
    [
      "h",
      "is</w>"
    ],
    [
      "l",
      "e</w>"
    ],
    [
      "b",
      "e</w>"
    ],
    [
      "wi",
      "th</w>"
    ],
    [
      "r",
      "a"
    ],
    [
      "g",
      "h"
    ],
    [
      "l",
      "a"
    ],
    [
      "you",
      "r</w>"
    ],
    [
      "d",
      "i"
    ],
    [
      "c",
      "o"
    ],
    [
      "f",
      "or</w>"
    ],
    [
      "th",
      "er</w>"
    ],
    [
      "i",
      "r</w>"
    ],
    [
      "ou",
      "r</w>"
    ],
    [
      "E",
      "N"
    ],
    [
      "f",
      "a"
    ],
    [
      "S",
      "</w>"
    ],
    [
      "ha",
      "ve</w>"
    ],
    [
      "I",
      "N"
    ],
    [
      "b",
      "e"
    ],
    [
      "th",
      "is</w>"
    ],
    [
      "f",
      "or"
    ],
    [
      "u",
      "n"
    ],
    [
      "hi",
      "m</w>"
    ],
    [
      "l",
      "y</w>"
    ],
    [
      "th",
      "ou</w>"
    ],
    [
      "d",
      "s</w>"
    ],
    [
      "h",
      "ea"
    ],
    [
      "p",
      "</w>"
    ],
    [
      "A",
      "R"
    ],
    [
      "e",
      "e"
    ],
    [
      "c",
      "a"
    ],
    [
      "T",
      "h"
    ],
    [
      "w",
      "h"
    ],
    [
      "s",
      "ha"
    ],
    [
      "t",
      "a"
    ],
    [
      "ou",
      "ld</w>"
    ],
    [
      "i",
      "r"
    ],
    [
      "th",
      "y</w>"
    ],
    [
      "I",
      "O</w>"
    ],
    [
      "e",
      "ll</w>"
    ],
    [
      "l",
      "o"
    ],
    [
      "s",
      "p"
    ],
    [
      "r",
      "ea"
    ],
    [
      "gh",
      "t</w>"
    ],
    [
      "s",
      "h"
    ],
    [
      "wi",
      "ll</w>"
    ],
    [
      "s",
      "u"
    ],
    [
      "s",
      "o</w>"
    ],
    [
      "oo",
      "d</w>"
    ],
    [
      "es",
      "s</w>"
    ],
    [
      "A",
      "</w>"
    ],
    [
      "on",
      "e</w>"
    ],
    [
      "a",
      "t"
    ],
    [
      "ar",
      "e</w>"
    ],
    [
      "b",
      "ut</w>"
    ],
    [
      "W",
      "h"
    ],
    [
      "a",
      "ll</w>"
    ],
    [
      "n",
      "ow</w>"
    ],
    [
      "U",
      "S</w>"
    ],
    [
      "es",
      "t</w>"
    ],
    [
      "u",
      "s</w>"
    ],
    [
      "or",
      "d</w>"
    ],
    [
      "t",
      "y</w>"
    ],
    [
      "s",
      "i"
    ],
    [
      "r",
      "u"
    ],
    [
      "m",
      "i"
    ],
    [
      "T",
      "he</w>"
    ],
    [
      "c",
      "on"
    ],
    [
      "a",
      "n</w>"
    ],
    [
      "t",
      "s</w>"
    ],
    [
      "e",
      "v"
    ],
    [
      "T",
      "o</w>"
    ],
    [
      "en",
      "t</w>"
    ],
    [
      "t",
      "er</w>"
    ],
    [
      "h",
      "er</w>"
    ],
    [
      "b",
      "y</w>"
    ],
    [
      "the",
      "e</w>"
    ],
    [
      "ma",
      "n</w>"
    ],
    [
      "s",
      "a"
    ],
    [
      "ea",
      "r</w>"
    ],
    [
      "o",
      "me</w>"
    ],
    [
      "sha",
      "ll</w>"
    ],
    [
      "m",
      "or"
    ],
    [
      "c",
      "k</w>"
    ],
    [
      "E",
      "</w>"
    ],
    [
      "d",
      "o</w>"
    ],
    [
      "o",
      "l"
    ],
    [
      "g",
      "e</w>"
    ],
    [
      "w",
      "e</w>"
    ],
    [
      "U",
      "C"
    ],
    [
      "IN",
      "G"
    ],
    [
      "c",
      "h"
    ],
    [
      "ow",
      "n</w>"
    ],
    [
      "m",
      "u"
    ],
    [
      "A",
      "N"
    ],
    [
      "n",
      "o</w>"
    ],
    [
      "T",
      "hat</w>"
    ],
    [
      "s",
      "e"
    ],
    [
      "E",
      "R"
    ],
    [
      "O",
      "R"
    ],
    [
      "m",
      "o"
    ],
    [
      "ea",
      "r"
    ],
    [
      "w",
      "hat</w>"
    ],
    [
      "co",
      "m"
    ],
    [
      "s",
      "el"
    ],
    [
      "E",
      "T"
    ],
    [
      "D",
      "</w>"
    ],
    [
      "ro",
      "m</w>"
    ],
    [
      "d",
      "e"
    ],
    [
      "a",
      "l"
    ],
    [
      "w",
      "or"
    ],
    [
      "q",
      "u"
    ],
    [
      "B",
      "ut</w>"
    ],
    [
      "c",
      "i"
    ],
    [
      "p",
      "o"
    ],
    [
      "m",
      "e"
    ],
    [
      "p",
      "r"
    ],
    [
      "Y",
      "</w>"
    ],
    [
      "a",
      "m</w>"
    ],
    [
      "hi",
      "ch</w>"
    ],
    [
      "b",
      "l"
    ],
    [
      "er",
      "s</w>"
    ],
    [
      "en",
      "ce</w>"
    ],
    [
      "in",
      "e</w>"
    ],
    [
      "in",
      "g"
    ],
    [
      "g",
      "ood</w>"
    ],
    [
      "en",
      "t"
    ],
    [
      "l",
      "e"
    ],
    [
      "g",
      "a"
    ],
    [
      "W",
      "hat</w>"
    ],
    [
      "d",
      "e</w>"
    ],
    [
      "K",
      "ING"
    ],
    [
      "p",
      "a"
    ],
    [
      "b",
      "o"
    ],
    [
      "f",
      "rom</w>"
    ],
    [
      "k",
      "ing</w>"
    ],
    [
      "f",
      "i"
    ],
    [
      "w",
      "as</w>"
    ],
    [
      "co",
      "me</w>"
    ],
    [
      "n",
      "e"
    ],
    [
      "mor",
      "e</w>"
    ],
    [
      "d",
      "o"
    ],
    [
      "t",
      "o"
    ],
    [
      "ou",
      "s</w>"
    ],
    [
      "r",
      "y</w>"
    ],
    [
      "b",
      "le</w>"
    ],
    [
      "v",
      "i"
    ],
    [
      "I",
      "C"
    ],
    [
      "p",
      "ro"
    ],
    [
      "i",
      "f</w>"
    ],
    [
      "w",
      "ell</w>"
    ],
    [
      "d",
      "ea"
    ],
    [
      "O",
      "L"
    ],
    [
      "s",
      "w"
    ],
    [
      "sel",
      "f</w>"
    ],
    [
      "c",
      "ou"
    ],
    [
      "l",
      "ea"
    ],
    [
      "f",
      "u"
    ],
    [
      "ti",
      "on</w>"
    ],
    [
      "E",
      "L"
    ],
    [
      "s",
      "ir</w>"
    ],
    [
      "the",
      "m</w>"
    ],
    [
      "F",
      "or</w>"
    ],
    [
      "w",
      "ould</w>"
    ],
    [
      "l",
      "ord</w>"
    ],
    [
      "I",
      "US</w>"
    ],
    [
      "KING",
      "</w>"
    ],
    [
      "g",
      "h</w>"
    ],
    [
      "er",
      "e"
    ],
    [
      "w",
      "</w>"
    ],
    [
      "t",
      "e</w>"
    ],
    [
      "s",
      "on</w>"
    ],
    [
      "AR",
      "D</w>"
    ],
    [
      "d",
      "y</w>"
    ],
    [
      "ou",
      "t</w>"
    ],
    [
      "s",
      "he</w>"
    ],
    [
      "the",
      "y</w>"
    ],
    [
      "the",
      "ir</w>"
    ],
    [
      "hea",
      "r"
    ],
    [
      "S",
      "T"
    ],
    [
      "p",
      "ar"
    ],
    [
      "h",
      "ere</w>"
    ],
    [
      "M",
      "y</w>"
    ],
    [
      "f",
      "e</w>"
    ],
    [
      "W",
      "i"
    ],
    [
      "s",
      "h</w>"
    ],
    [
      "th",
      "en</w>"
    ],
    [
      "an",
      "t</w>"
    ],
    [
      "w",
      "ar"
    ],
    [
      "en",
      "d</w>"
    ],
    [
      "lo",
      "ve</w>"
    ],
    [
      "h",
      "o"
    ],
    [
      "g",
      "u"
    ],
    [
      "g",
      "i"
    ],
    [
      "s",
      "ay</w>"
    ],
    [
      "p",
      "on</w>"
    ],
    [
      "O",
      "N"
    ],
    [
      "l",
      "et</w>"
    ],
    [
      "i",
      "d</w>"
    ],
    [
      "a",
      "l</w>"
    ],
    [
      "for",
      "e</w>"
    ],
    [
      "t",
      "ru"
    ],
    [
      "b",
      "ro"
    ],
    [
      "w",
      "ere</w>"
    ],
    [
      "li",
      "ke</w>"
    ],
    [
      "ur",
      "e</w>"
    ],
    [
      "ev",
      "er</w>"
    ],
    [
      "A",
      "s</w>"
    ],
    [
      "g",
      "ra"
    ],
    [
      "er",
      "y</w>"
    ],
    [
      "K",
      "E</w>"
    ],
    [
      "an",
      "y</w>"
    ],
    [
      "ha",
      "th</w>"
    ],
    [
      "n",
      "i"
    ],
    [
      "o",
      "f"
    ],
    [
      "e",
      "c"
    ],
    [
      "d",
      "er</w>"
    ],
    [
      "m",
      "p"
    ],
    [
      "t",
      "ed</w>"
    ],
    [
      "ir",
      "st</w>"
    ],
    [
      "ma",
      "y</w>"
    ],
    [
      "k",
      "now</w>"
    ],
    [
      "ma",
      "ke</w>"
    ],
    [
      "v",
      "es</w>"
    ],
    [
      "c",
      "ha"
    ],
    [
      "k",
      "s</w>"
    ],
    [
      "Y",
      "ou</w>"
    ],
    [
      "th",
      "ou"
    ],
    [
      "m",
      "en</w>"
    ],
    [
      "b",
      "a"
    ],
    [
      "w",
      "ay</w>"
    ],
    [
      "th",
      "an</w>"
    ],
    [
      "w",
      "a"
    ],
    [
      "R",
      "O"
    ],
    [
      "mu",
      "st</w>"
    ],
    [
      "in",
      "d</w>"
    ],
    [
      "T",
      "IO</w>"
    ],
    [
      "H",
      "a"
    ],
    [
      "u",
      "pon</w>"
    ],
    [
      "t",
      "t"
    ],
    [
      "fa",
      "ther</w>"
    ],
    [
      "ET",
      "</w>"
    ],
    [
      "th",
      "ere</w>"
    ],
    [
      "d",
      "u"
    ],
    [
      "A",
      "U"
    ],
    [
      "ea",
      "k</w>"
    ],
    [
      "m",
      "b"
    ],
    [
      "d",
      "a"
    ],
    [
      "s",
      "o"
    ],
    [
      "p",
      "i"
    ],
    [
      "r",
      "an"
    ],
    [
      "sh",
      "ould</w>"
    ],
    [
      "n",
      "a"
    ],
    [
      "w",
      "hich</w>"
    ],
    [
      "fu",
      "l</w>"
    ],
    [
      "H",
      "e</w>"
    ],
    [
      "ha",
      "d</w>"
    ],
    [
      "th",
      "ing</w>"
    ],
    [
      "g",
      "o</w>"
    ],
    [
      "f",
      "ri"
    ],
    [
      "I",
      "f</w>"
    ],
    [
      "oo",
      "k</w>"
    ],
    [
      "dea",
      "th</w>"
    ],
    [
      "p",
      "er"
    ],
    [
      "in",
      "k</w>"
    ],
    [
      "s",
      "ed</w>"
    ],
    [
      "h",
      "ow</w>"
    ],
    [
      "t",
      "ter</w>"
    ],
    [
      "K",
      "</w>"
    ],
    [
      "i",
      "ll</w>"
    ],
    [
      "es",
      "e</w>"
    ],
    [
      "st",
      "er</w>"
    ],
    [
      "ee",
      "p</w>"
    ],
    [
      "a",
      "ga"
    ],
    [
      "o",
      "d</w>"
    ],
    [
      "C",
      "A"
    ],
    [
      "w",
      "o"
    ],
    [
      "IC",
      "H"
    ],
    [
      "di",
      "d</w>"
    ],
    [
      "on",
      "g</w>"
    ],
    [
      "se",
      "e</w>"
    ],
    [
      "R",
      "ICH"
    ],
    [
      "at",
      "e</w>"
    ],
    [
      "u",
      "p</w>"
    ],
    [
      "D",
      "U"
    ],
    [
      "DU",
      "KE</w>"
    ],
    [
      "ti",
      "me</w>"
    ],
    [
      "to",
      "o</w>"
    ],
    [
      "y",
      "et</w>"
    ],
    [
      "s",
      "s</w>"
    ],
    [
      "h",
      "on"
    ],
    [
      "r",
      "ow</w>"
    ],
    [
      "m",
      "ine</w>"
    ],
    [
      "m",
      "ar"
    ],
    [
      "s",
      "ome</w>"
    ],
    [
      "a",
      "c"
    ],
    [
      "RICH",
      "ARD</w>"
    ],
    [
      "g",
      "o"
    ],
    [
      "p",
      "p"
    ],
    [
      "EN",
      "TIO</w>"
    ],
    [
      "o",
      "se</w>"
    ],
    [
      "wh",
      "en</w>"
    ],
    [
      "ER",
      "</w>"
    ],
    [
      "W",
      "hich</w>"
    ],
    [
      "v",
      "en</w>"
    ],
    [
      "l",
      "l"
    ],
    [
      "sp",
      "eak</w>"
    ],
    [
      "d",
      "es"
    ],
    [
      "d",
      "ay</w>"
    ],
    [
      "e",
      "x"
    ],
    [
      "G",
      "od</w>"
    ],
    [
      "u",
      "se</w>"
    ],
    [
      "IN",
      "C"
    ],
    [
      "c",
      "an"
    ],
    [
      "Wh",
      "y</w>"
    ],
    [
      "ear",
      "s</w>"
    ],
    [
      "gi",
      "ve</w>"
    ],
    [
      "b",
      "u"
    ],
    [
      "r",
      "ou"
    ],
    [
      "s",
      "ou"
    ],
    [
      "e",
      "y"
    ],
    [
      "l",
      "t</w>"
    ],
    [
      "su",
      "ch</w>"
    ],
    [
      "F",
      "irst</w>"
    ],
    [
      "ta",
      "ke</w>"
    ],
    [
      "war",
      "d</w>"
    ],
    [
      "v",
      "ed</w>"
    ],
    [
      "ing",
      "s</w>"
    ],
    [
      "mo",
      "st</w>"
    ],
    [
      "A",
      "B"
    ],
    [
      "g",
      "ent"
    ],
    [
      "n",
      "ess</w>"
    ],
    [
      "th",
      "ese</w>"
    ],
    [
      "c",
      "e"
    ],
    [
      "o",
      "p"
    ],
    [
      "p",
      "ri"
    ],
    [
      "ca",
      "n</w>"
    ],
    [
      "I",
      "n</w>"
    ],
    [
      "i",
      "g"
    ],
    [
      "ou",
      "r"
    ],
    [
      "L",
      "O"
    ],
    [
      "Wi",
      "th</w>"
    ],
    [
      "hear",
      "t</w>"
    ],
    [
      "li",
      "fe</w>"
    ],
    [
      "I",
      "I</w>"
    ],
    [
      "c",
      "hi"
    ],
    [
      "cou",
      "n"
    ],
    [
      "E",
      "ST"
    ],
    [
      "in",
      "ce</w>"
    ],
    [
      "T",
      "his</w>"
    ],
    [
      "EN",
      "</w>"
    ],
    [
      "N",
      "o</w>"
    ],
    [
      "H",
      "ow</w>"
    ],
    [
      "UC",
      "H"
    ],
    [
      "O",
      "f</w>"
    ],
    [
      "e",
      "en</w>"
    ],
    [
      "F",
      "</w>"
    ],
    [
      "an",
      "ce</w>"
    ],
    [
      "C",
      "ome</w>"
    ],
    [
      "r",
      "es"
    ],
    [
      "l",
      "ow</w>"
    ],
    [
      "G",
      "LO"
    ],
    [
      "GLO",
      "UC"
    ],
    [
      "GLOUC",
      "EST"
    ],
    [
      "GLOUCEST",
      "ER</w>"
    ],
    [
      "S",
      "o</w>"
    ],
    [
      "m",
      "s</w>"
    ],
    [
      "E",
      "EN</w>"
    ],
    [
      "i",
      "t"
    ],
    [
      "m",
      "ent</w>"
    ],
    [
      "bro",
      "ther</w>"
    ],
    [
      "Th",
      "ou</w>"
    ],
    [
      "th",
      "ink</w>"
    ],
    [
      "c",
      "k"
    ],
    [
      "L",
      "I"
    ],
    [
      "y",
      "self</w>"
    ],
    [
      "o",
      "ther</w>"
    ],
    [
      "R",
      "Y</w>"
    ],
    [
      "hea",
      "r</w>"
    ],
    [
      "t",
      "ell</w>"
    ],
    [
      "ow",
      "s</w>"
    ],
    [
      "ar",
      "t</w>"
    ],
    [
      "d",
      "r"
    ],
    [
      "i",
      "l</w>"
    ],
    [
      "v",
      "o"
    ],
    [
      "Q",
      "U"
    ],
    [
      "QU",
      "EEN</w>"
    ],
    [
      "V",
      "INC"
    ],
    [
      "VINC",
      "ENTIO</w>"
    ],
    [
      "M",
      "ar"
    ],
    [
      "p",
      "e"
    ],
    [
      "ma",
      "de</w>"
    ],
    [
      "a",
      "d"
    ],
    [
      "t",
      "is</w>"
    ],
    [
      "mu",
      "ch</w>"
    ],
    [
      "d",
      "er"
    ],
    [
      "O",
      "F</w>"
    ],
    [
      "I",
      "s</w>"
    ],
    [
      "t",
      "w"
    ],
    [
      "W",
      "e</w>"
    ],
    [
      "a",
      "f"
    ],
    [
      "r",
      "e</w>"
    ],
    [
      "p",
      "la"
    ],
    [
      "L",
      "ord</w>"
    ],
    [
      "b",
      "rea"
    ],
    [
      "y",
      "s</w>"
    ],
    [
      "r",
      "d</w>"
    ],
    [
      "N",
      "ow</w>"
    ],
    [
      "on",
      "s</w>"
    ],
    [
      "o",
      "ld</w>"
    ],
    [
      "an",
      "g"
    ],
    [
      "S",
      "e"
    ],
    [
      "rea",
      "t</w>"
    ],
    [
      "a",
      "b"
    ],
    [
      "H",
      "EN"
    ],
    [
      "HEN",
      "RY</w>"
    ],
    [
      "s",
      "er"
    ],
    [
      "ni",
      "ght</w>"
    ],
    [
      "E",
      "S"
    ],
    [
      "n",
      "ever</w>"
    ],
    [
      "an",
      "ds</w>"
    ],
    [
      "l",
      "ess</w>"
    ],
    [
      "OR",
      "I"
    ],
    [
      "st",
      "r"
    ],
    [
      "v",
      "er"
    ],
    [
      "d",
      "ed</w>"
    ],
    [
      "h",
      "u"
    ],
    [
      "d",
      "one</w>"
    ],
    [
      "w",
      "hi"
    ],
    [
      "en",
      "ds</w>"
    ],
    [
      "di",
      "s"
    ],
    [
      "gu",
      "e</w>"
    ],
    [
      "bl",
      "ood</w>"
    ],
    [
      "ur",
      "se</w>"
    ],
    [
      "E",
      "S</w>"
    ],
    [
      "h",
      "e"
    ],
    [
      "t",
      "er"
    ],
    [
      "Y",
      "our</w>"
    ],
    [
      "e",
      "et</w>"
    ],
    [
      "ere",
      "fore</w>"
    ],
    [
      "Y",
      "OR"
    ],
    [
      "YOR",
      "K</w>"
    ],
    [
      "R",
      "o"
    ],
    [
      "p",
      "re"
    ],
    [
      "j",
      "o"
    ],
    [
      "v",
      "ery</w>"
    ],
    [
      "t",
      "en"
    ],
    [
      "ow",
      "er</w>"
    ],
    [
      "v",
      "en"
    ],
    [
      "O",
      "r</w>"
    ],
    [
      "IN",
      "IUS</w>"
    ],
    [
      "u",
      "gh"
    ],
    [
      "el",
      "y</w>"
    ],
    [
      "can",
      "not</w>"
    ],
    [
      "na",
      "me</w>"
    ],
    [
      "e",
      "y</w>"
    ],
    [
      "l",
      "and</w>"
    ],
    [
      "l",
      "s</w>"
    ],
    [
      "t",
      "e"
    ],
    [
      "p",
      "e</w>"
    ],
    [
      "in",
      "st</w>"
    ],
    [
      "c",
      "es</w>"
    ],
    [
      "wh",
      "ere</w>"
    ],
    [
      "I",
      "t</w>"
    ],
    [
      "c",
      "u"
    ],
    [
      "h",
      "and</w>"
    ],
    [
      "tru",
      "e</w>"
    ],
    [
      "P",
      "ET"
    ],
    [
      "be",
      "en</w>"
    ],
    [
      "b",
      "r"
    ],
    [
      "m",
      "er"
    ],
    [
      "fa",
      "ir</w>"
    ],
    [
      "d",
      "ing</w>"
    ],
    [
      "R",
      "i"
    ],
    [
      "E",
      "D"
    ],
    [
      "ED",
      "W"
    ],
    [
      "EDW",
      "ARD</w>"
    ],
    [
      "t",
      "u"
    ],
    [
      "p",
      "l"
    ],
    [
      "no",
      "ble</w>"
    ],
    [
      "l",
      "or"
    ],
    [
      "G",
      "R"
    ],
    [
      "o",
      "m</w>"
    ],
    [
      "do",
      "th</w>"
    ],
    [
      "T",
      "H"
    ],
    [
      "h",
      "ou"
    ],
    [
      "hon",
      "our</w>"
    ],
    [
      "aga",
      "in</w>"
    ],
    [
      "n",
      "g"
    ],
    [
      "Wh",
      "ere</w>"
    ],
    [
      "U",
      "M"
    ],
    [
      "M",
      "I"
    ],
    [
      "p",
      "lea"
    ],
    [
      "L",
      "E"
    ],
    [
      "L",
      "UC"
    ],
    [
      "A",
      "y</w>"
    ],
    [
      "pr",
      "es"
    ],
    [
      "M",
      "EN"
    ],
    [
      "d",
      "ly</w>"
    ],
    [
      "t",
      "ra"
    ],
    [
      "c",
      "r"
    ],
    [
      "wi",
      "th"
    ],
    [
      "EL",
      "L"
    ],
    [
      "con",
      "d</w>"
    ],
    [
      "s",
      "ee"
    ],
    [
      "m",
      "on"
    ],
    [
      "f",
      "ol"
    ],
    [
      "j",
      "u"
    ],
    [
      "v",
      "ing</w>"
    ],
    [
      "k",
      "n"
    ],
    [
      "l",
      "ook</w>"
    ],
    [
      "E",
      "d"
    ],
    [
      "M",
      "E"
    ],
    [
      "ar",
      "d</w>"
    ],
    [
      "be",
      "fore</w>"
    ],
    [
      "Ed",
      "ward</w>"
    ],
    [
      "RO",
      "ME"
    ],
    [
      "ROME",
      "O</w>"
    ],
    [
      "B",
      "e"
    ],
    [
      "MEN",
      "EN"
    ],
    [
      "MENEN",
      "IUS</w>"
    ],
    [
      "Wh",
      "en</w>"
    ],
    [
      "B",
      "y</w>"
    ],
    [
      "i",
      "s"
    ],
    [
      "bo",
      "th</w>"
    ],
    [
      "v",
      "er</w>"
    ],
    [
      "li",
      "ve</w>"
    ],
    [
      "c",
      "or"
    ],
    [
      "f",
      "e"
    ],
    [
      "com",
      "es</w>"
    ],
    [
      "n",
      "or</w>"
    ],
    [
      "Th",
      "en</w>"
    ],
    [
      "s",
      "hi"
    ],
    [
      "ugh",
      "ter</w>"
    ],
    [
      "wh",
      "o</w>"
    ],
    [
      "b",
      "ea"
    ],
    [
      "PET",
      "R"
    ],
    [
      "PETR",
      "UCH"
    ],
    [
      "PETRUCH",
      "IO</w>"
    ],
    [
      "p",
      "s</w>"
    ],
    [
      "O",
      "M"
    ],
    [
      "re",
      "e</w>"
    ],
    [
      "qu",
      "een</w>"
    ],
    [
      "L",
      "et</w>"
    ],
    [
      "f",
      "l"
    ],
    [
      "t",
      "ri"
    ],
    [
      "wor",
      "ld</w>"
    ],
    [
      "ou",
      "n"
    ],
    [
      "t",
      "ing</w>"
    ],
    [
      "t",
      "ur"
    ],
    [
      "be",
      "ing</w>"
    ],
    [
      "g",
      "reat</w>"
    ],
    [
      "lea",
      "ve</w>"
    ],
    [
      "m",
      "yself</w>"
    ],
    [
      "M",
      "AR"
    ],
    [
      "ca",
      "ll</w>"
    ],
    [
      "C",
      "l"
    ],
    [
      "H",
      "A"
    ],
    [
      "ON",
      "T"
    ],
    [
      "th",
      "us</w>"
    ],
    [
      "Wh",
      "o</w>"
    ],
    [
      "h",
      "er"
    ],
    [
      "C",
      "a"
    ],
    [
      "s",
      "en"
    ],
    [
      "C",
      "ORI"
    ],
    [
      "CORI",
      "OL"
    ],
    [
      "CORIOL",
      "AN"
    ],
    [
      "CORIOLAN",
      "US</w>"
    ],
    [
      "Se",
      "cond</w>"
    ],
    [
      "k",
      "es</w>"
    ],
    [
      "b",
      "ear</w>"
    ],
    [
      "wi",
      "fe</w>"
    ],
    [
      "sw",
      "eet</w>"
    ],
    [
      "I",
      "S"
    ],
    [
      "mo",
      "ther</w>"
    ],
    [
      "s",
      "l"
    ],
    [
      "gra",
      "ce</w>"
    ],
    [
      "i",
      "ti"
    ],
    [
      "s",
      "es</w>"
    ],
    [
      "com",
      "m"
    ],
    [
      "ca",
      "use</w>"
    ],
    [
      "ir",
      "e</w>"
    ],
    [
      "d",
      "own</w>"
    ],
    [
      "b",
      "i"
    ],
    [
      "hea",
      "d</w>"
    ],
    [
      "in",
      "t</w>"
    ],
    [
      "ha",
      "n</w>"
    ],
    [
      "w",
      "s</w>"
    ],
    [
      "ey",
      "es</w>"
    ],
    [
      "s",
      "or"
    ],
    [
      "B",
      "A"
    ],
    [
      "g",
      "er</w>"
    ],
    [
      "f",
      "t</w>"
    ],
    [
      "f",
      "ear</w>"
    ],
    [
      "d",
      "on</w>"
    ],
    [
      "a",
      "ge</w>"
    ],
    [
      "c",
      "ar"
    ],
    [
      "s",
      "ea"
    ],
    [
      "ha",
      "st</w>"
    ],
    [
      "c",
      "l"
    ],
    [
      "p",
      "u"
    ],
    [
      "st",
      "and</w>"
    ],
    [
      "f",
      "oo"
    ],
    [
      "IN",
      "A</w>"
    ],
    [
      "h",
      "el"
    ],
    [
      "hou",
      "se</w>"
    ],
    [
      "m",
      "ea"
    ],
    [
      "a",
      "way</w>"
    ],
    [
      "po",
      "or</w>"
    ],
    [
      "d",
      "st</w>"
    ],
    [
      "t",
      "on"
    ],
    [
      "s",
      "in</w>"
    ],
    [
      "s",
      "et</w>"
    ],
    [
      "t",
      "un"
    ],
    [
      "I",
      "V"
    ],
    [
      "g",
      "ri"
    ],
    [
      "st",
      "i"
    ],
    [
      "an",
      "i"
    ],
    [
      "dea",
      "d</w>"
    ],
    [
      "I",
      "II</w>"
    ],
    [
      "N",
      "o"
    ],
    [
      "a",
      "ke</w>"
    ],
    [
      "T",
      "han</w>"
    ],
    [
      "di",
      "e</w>"
    ],
    [
      "you",
      "r"
    ],
    [
      "e",
      "f</w>"
    ],
    [
      "hea",
      "ven</w>"
    ],
    [
      "tt",
      "le</w>"
    ],
    [
      "G",
      "o</w>"
    ],
    [
      "f",
      "ou"
    ],
    [
      "s",
      "ure</w>"
    ],
    [
      "W",
      "ar"
    ],
    [
      "cou",
      "r"
    ],
    [
      "in",
      "s</w>"
    ],
    [
      "m",
      "any</w>"
    ],
    [
      "gent",
      "le"
    ],
    [
      "fri",
      "ends</w>"
    ],
    [
      "War",
      "wi"
    ],
    [
      "ou",
      "gh</w>"
    ],
    [
      "U",
      "n"
    ],
    [
      "Warwi",
      "ck</w>"
    ],
    [
      "a",
      "s"
    ],
    [
      "de",
      "ed</w>"
    ],
    [
      "ea",
      "ce</w>"
    ],
    [
      "an",
      "s</w>"
    ],
    [
      "H",
      "is</w>"
    ],
    [
      "T",
      "is</w>"
    ],
    [
      "A",
      "D"
    ],
    [
      "n",
      "e</w>"
    ],
    [
      "w",
      "ord</w>"
    ],
    [
      "ec",
      "t</w>"
    ],
    [
      "pr",
      "ay</w>"
    ],
    [
      "IS",
      "AB"
    ],
    [
      "ISAB",
      "ELL"
    ],
    [
      "ISABELL",
      "A</w>"
    ],
    [
      "t",
      "ch</w>"
    ],
    [
      "g",
      "one</w>"
    ],
    [
      "da",
      "ughter</w>"
    ],
    [
      "Ro",
      "me"
    ],
    [
      "Rome",
      "o</w>"
    ],
    [
      "st",
      "ay</w>"
    ],
    [
      "W",
      "ell</w>"
    ],
    [
      "sou",
      "l</w>"
    ],
    [
      "t",
      "or"
    ],
    [
      "R",
      "AN"
    ],
    [
      "our",
      "s</w>"
    ],
    [
      "g",
      "e"
    ],
    [
      "no",
      "thing</w>"
    ],
    [
      "for",
      "d</w>"
    ],
    [
      "J",
      "U"
    ],
    [
      "JU",
      "LI"
    ],
    [
      "JULI",
      "ET</w>"
    ],
    [
      "LE",
      "ONT"
    ],
    [
      "LEONT",
      "ES</w>"
    ],
    [
      "li",
      "e"
    ],
    [
      "N",
      "ay</w>"
    ],
    [
      "thou",
      "gh</w>"
    ],
    [
      "ci",
      "ous</w>"
    ],
    [
      "wor",
      "ds</w>"
    ],
    [
      "er",
      "v"
    ],
    [
      "w",
      "r"
    ],
    [
      "s",
      "ur"
    ],
    [
      "H",
      "ere</w>"
    ],
    [
      "si",
      "on</w>"
    ],
    [
      "be",
      "tter</w>"
    ],
    [
      "par",
      "t</w>"
    ],
    [
      "P",
      "ro"
    ],
    [
      "a",
      "r</w>"
    ],
    [
      "L",
      "AD"
    ],
    [
      "LAD",
      "Y</w>"
    ],
    [
      "con",
      "t"
    ],
    [
      "ti",
      "ll</w>"
    ],
    [
      "V",
      "OL"
    ],
    [
      "EN",
      "C"
    ],
    [
      "ENC",
      "E</w>"
    ],
    [
      "or",
      "e</w>"
    ],
    [
      "s",
      "la"
    ],
    [
      "ne",
      "ws</w>"
    ],
    [
      "B",
      "R"
    ],
    [
      "C",
      "iti"
    ],
    [
      "Citi",
      "z"
    ],
    [
      "aga",
      "inst</w>"
    ],
    [
      "i",
      "ther</w>"
    ],
    [
      "of",
      "f</w>"
    ],
    [
      "m",
      "es</w>"
    ],
    [
      "ho",
      "ld</w>"
    ],
    [
      "qu",
      "i"
    ],
    [
      "th",
      "ose</w>"
    ],
    [
      "cr",
      "own</w>"
    ],
    [
      "li",
      "ttle</w>"
    ],
    [
      "i",
      "ve</w>"
    ],
    [
      "S",
      "IC"
    ],
    [
      "SIC",
      "INIUS</w>"
    ],
    [
      "s",
      "b"
    ],
    [
      "S",
      "erv"
    ],
    [
      "S",
      "ha"
    ],
    [
      "a",
      "p"
    ],
    [
      "ig",
      "n</w>"
    ],
    [
      "i",
      "l"
    ],
    [
      "r",
      "est</w>"
    ],
    [
      "b",
      "ra"
    ],
    [
      "ha",
      "r"
    ],
    [
      "st",
      "ill</w>"
    ],
    [
      "m",
      "self</w>"
    ],
    [
      "p",
      "ur"
    ],
    [
      "l",
      "ong</w>"
    ],
    [
      "B",
      "e</w>"
    ],
    [
      "cha",
      "rd</w>"
    ],
    [
      "hi",
      "mself</w>"
    ],
    [
      "ri",
      "ght</w>"
    ],
    [
      "c",
      "ur"
    ],
    [
      "m",
      "in"
    ],
    [
      "S",
      "ir</w>"
    ],
    [
      "No",
      "t</w>"
    ],
    [
      "c",
      "y</w>"
    ],
    [
      "fa",
      "ce</w>"
    ],
    [
      "h",
      "ence</w>"
    ],
    [
      "th",
      "an"
    ],
    [
      "tw",
      "o</w>"
    ],
    [
      "LUC",
      "IO</w>"
    ],
    [
      "b",
      "es"
    ],
    [
      "h",
      "or"
    ],
    [
      "su",
      "b"
    ],
    [
      "T",
      "I"
    ],
    [
      "Ri",
      "chard</w>"
    ],
    [
      "IV",
      "</w>"
    ],
    [
      "en",
      "e"
    ],
    [
      "un",
      "to</w>"
    ],
    [
      "Ha",
      "ve</w>"
    ],
    [
      "f",
      "el"
    ],
    [
      "tur",
      "n</w>"
    ],
    [
      "th",
      "erefore</w>"
    ],
    [
      "ri",
      "ed</w>"
    ],
    [
      "L",
      "O</w>"
    ],
    [
      "f",
      "irst</w>"
    ],
    [
      "Th",
      "ere</w>"
    ],
    [
      "n",
      "s</w>"
    ],
    [
      "c",
      "ed</w>"
    ],
    [
      "in",
      "ess</w>"
    ],
    [
      "c",
      "</w>"
    ],
    [
      "s",
      "ing</w>"
    ],
    [
      "tun",
      "e</w>"
    ],
    [
      "Y",
      "or"
    ],
    [
      "du",
      "ke</w>"
    ],
    [
      "n",
      "ing</w>"
    ],
    [
      "Th",
      "y</w>"
    ],
    [
      "H",
      "en"
    ],
    [
      "H",
      "</w>"
    ],
    [
      "f",
      "f"
    ],
    [
      "ton",
      "gue</w>"
    ],
    [
      "p",
      "eace</w>"
    ],
    [
      "th",
      "ine</w>"
    ],
    [
      "Yor",
      "k</w>"
    ],
    [
      "EL",
      "I"
    ],
    [
      "ELI",
      "Z"
    ],
    [
      "ELIZ",
      "AB"
    ],
    [
      "ELIZAB",
      "ET"
    ],
    [
      "ELIZABET",
      "H</w>"
    ],
    [
      "re",
      "p"
    ],
    [
      "t",
      "ly</w>"
    ],
    [
      "p",
      "ra"
    ],
    [
      "s",
      "ol"
    ],
    [
      "el",
      "se</w>"
    ],
    [
      "for",
      "th</w>"
    ],
    [
      "com",
      "p"
    ],
    [
      "G",
      "ood</w>"
    ],
    [
      "or",
      "t</w>"
    ],
    [
      "p",
      "ower</w>"
    ],
    [
      "ar",
      "e"
    ],
    [
      "GR",
      "E"
    ],
    [
      "I",
      "AN"
    ],
    [
      "pe",
      "op"
    ],
    [
      "ev",
      "en</w>"
    ],
    [
      "ear",
      "th</w>"
    ],
    [
      "Y",
      "et</w>"
    ],
    [
      "g",
      "ar"
    ],
    [
      "hu",
      "sb"
    ],
    [
      "b",
      "id</w>"
    ],
    [
      "ma",
      "ster</w>"
    ],
    [
      "la",
      "dy</w>"
    ],
    [
      "ne",
      "w</w>"
    ],
    [
      "Hen",
      "ry</w>"
    ],
    [
      "a",
      "u"
    ],
    [
      "c",
      "ould</w>"
    ],
    [
      "m",
      "en"
    ],
    [
      "b",
      "est</w>"
    ],
    [
      "c",
      "en"
    ],
    [
      "be",
      "g"
    ],
    [
      "C",
      "L"
    ],
    [
      "peop",
      "le</w>"
    ],
    [
      "thou",
      "ght</w>"
    ],
    [
      "are",
      "well</w>"
    ],
    [
      "M",
      "ER"
    ],
    [
      "P",
      "ER"
    ],
    [
      "mb",
      "er</w>"
    ],
    [
      "ba",
      "ck</w>"
    ],
    [
      "ee",
      "ch</w>"
    ],
    [
      "Sha",
      "ll</w>"
    ],
    [
      "d",
      "ou"
    ],
    [
      "M",
      "a"
    ],
    [
      "V",
      "I</w>"
    ],
    [
      "W",
      "AR"
    ],
    [
      "WAR",
      "W"
    ],
    [
      "WARW",
      "IC"
    ],
    [
      "WARWIC",
      "K</w>"
    ],
    [
      "Citiz",
      "en</w>"
    ],
    [
      "el",
      "d</w>"
    ],
    [
      "wh",
      "y</w>"
    ],
    [
      "U",
      "T"
    ],
    [
      "e",
      "l</w>"
    ],
    [
      "li",
      "ght</w>"
    ],
    [
      "d",
      "en</w>"
    ],
    [
      "Wi",
      "ll</w>"
    ],
    [
      "p",
      "t</w>"
    ],
    [
      "on",
      "ce</w>"
    ],
    [
      "p",
      "ut</w>"
    ],
    [
      "S",
      "he</w>"
    ],
    [
      "ho",
      "pe</w>"
    ],
    [
      "gent",
      "le</w>"
    ],
    [
      "you",
      "n"
    ],
    [
      "d",
      "rea"
    ],
    [
      "N",
      "urse</w>"
    ],
    [
      "Th",
      "ey</w>"
    ],
    [
      "k",
      "eep</w>"
    ],
    [
      "h",
      "ome</w>"
    ],
    [
      "n",
      "one</w>"
    ],
    [
      "r",
      "ant</w>"
    ],
    [
      "c",
      "es"
    ],
    [
      "lor",
      "ds</w>"
    ],
    [
      "youn",
      "g</w>"
    ],
    [
      "ro",
      "y"
    ],
    [
      "HA",
      "M"
    ],
    [
      "HAM",
      "</w>"
    ],
    [
      "A",
      "ll</w>"
    ],
    [
      "t",
      "en</w>"
    ],
    [
      "sa",
      "id</w>"
    ],
    [
      "pla",
      "ce</w>"
    ],
    [
      "husb",
      "and</w>"
    ],
    [
      "l",
      "es</w>"
    ],
    [
      "pr",
      "ince</w>"
    ],
    [
      "CA",
      "P"
    ],
    [
      "CAP",
      "U"
    ],
    [
      "CAPU",
      "L"
    ],
    [
      "CAPUL",
      "ET</w>"
    ],
    [
      "mi",
      "ght</w>"
    ],
    [
      "d",
      "ear</w>"
    ],
    [
      "n",
      "at"
    ],
    [
      "h",
      "ands</w>"
    ],
    [
      "mor",
      "row</w>"
    ],
    [
      "u",
      "r</w>"
    ],
    [
      "gh",
      "ts</w>"
    ],
    [
      "g",
      "et</w>"
    ],
    [
      "el",
      "come</w>"
    ],
    [
      "hi",
      "ther</w>"
    ],
    [
      "b",
      "ri"
    ],
    [
      "R",
      "ome</w>"
    ],
    [
      "ev",
      "ery</w>"
    ],
    [
      "ta",
      "in</w>"
    ],
    [
      "b",
      "ed</w>"
    ],
    [
      "g",
      "ed</w>"
    ],
    [
      "w",
      "at"
    ],
    [
      "b",
      "ani"
    ],
    [
      "c",
      "ra"
    ],
    [
      "hear",
      "d</w>"
    ],
    [
      "a",
      "pp"
    ],
    [
      "ca",
      "me</w>"
    ],
    [
      "f",
      "ind</w>"
    ],
    [
      "BR",
      "UT"
    ],
    [
      "BRUT",
      "US</w>"
    ],
    [
      "li",
      "es</w>"
    ],
    [
      "d",
      "ra"
    ],
    [
      "B",
      "UC"
    ],
    [
      "BUC",
      "KING"
    ],
    [
      "BUCKING",
      "HAM</w>"
    ],
    [
      "sh",
      "ow</w>"
    ],
    [
      "ee",
      "ds</w>"
    ],
    [
      "g",
      "en"
    ],
    [
      "F",
      "rom</w>"
    ],
    [
      "c",
      "lo"
    ],
    [
      "br",
      "ing</w>"
    ],
    [
      "b",
      "ur"
    ],
    [
      "ES",
      "S</w>"
    ],
    [
      "B",
      "OL"
    ],
    [
      "BOL",
      "ING"
    ],
    [
      "BOLING",
      "B"
    ],
    [
      "BOLINGB",
      "RO"
    ]
  ],
  "tokens": [
    "!</w>",
    "$",
    "&",
    "'</w>",
    ",</w>",
    "-</w>",
    ".</w>",
    "3",
    ":</w>",
    ";</w>",
    "</w>",
    "?</w>",
    "A",
    "A</w>",
    "AB",
    "AD",
    "AN",
    "AR",
    "AU",
    "All</w>",
    "And</w>",
    "As</w>",
    "Ay</w>",
    "B",
    "BA",
    "BOLINGBRO",
    "BR",
    "BRUTUS</w>",
    "BUCKINGHAM</w>",
    "Be",
    "Be</w>",
    "But</w>",
    "By</w>",
    "C",
    "CA",
    "CAPULET</w>",
    "CL",
    "CORIOLANUS</w>",
    "Ca",
    "Citiz",
    "Citizen</w>",
    "Cl",
    "Come</w>",
    "D",
    "D</w>",
    "DUKE</w>",
    "E",
    "E</w>",
    "EDWARD</w>",
    "EEN</w>",
    "EL",
    "ELIZABETH</w>",
    "ELL",
    "EN",
    "EN</w>",
    "ENCE</w>",
    "ENTIO</w>",
    "ER",
    "ER</w>",
    "ES",
    "ES</w>",
    "ESS</w>",
    "EST",
    "ET",
    "ET</w>",
    "Ed",
    "Edward</w>",
    "F",
    "F</w>",
    "First</w>",
    "For</w>",
    "From</w>",
    "G",
    "GLOUCESTER</w>",
    "GR",
    "GRE",
    "Go</w>",
    "God</w>",
    "Good</w>",
    "H",
    "H</w>",
    "HA",
    "HAM</w>",
    "HENRY</w>",
    "Ha",
    "Have</w>",
    "He</w>",
    "Hen",
    "Henry</w>",
    "Here</w>",
    "His</w>",
    "How</w>",
    "I",
    "I</w>",
    "IAN",
    "ICH",
    "II</w>",
    "III</w>",
    "IN",
    "INA</w>",
    "INC",
    "ING",
    "INIUS</w>",
    "IO</w>",
    "IS",
    "ISABELLA</w>",
    "IUS</w>",
    "IV",
    "IV</w>",
    "If</w>",
    "In</w>",
    "Is</w>",
    "It</w>",
    "J",
    "JULIET</w>",
    "K",
    "K</w>",
    "KE</w>",
    "KING</w>",
    "L",
    "LADY</w>",
    "LE",
    "LEONTES</w>",
    "LI",
    "LO",
    "LO</w>",
    "LUC",
    "LUCIO</w>",
    "Let</w>",
    "Lord</w>",
    "M",
    "MAR",
    "ME",
    "MEN",
    "MENENIUS</w>",
    "MER",
    "MI",
    "Ma",
    "Mar",
    "My</w>",
    "N",
    "Nay</w>",
    "No",
    "No</w>",
    "Not</w>",
    "Now</w>",
    "Nurse</w>",
    "O",
    "O</w>",
    "OF</w>",
    "OL",
    "OM",
    "ON",
    "ONT",
    "OR",
    "ORI",
    "Of</w>",
    "Or</w>",
    "P",
    "PER",
    "PET",
    "PETRUCHIO</w>",
    "Pro",
    "Q",
    "QUEEN</w>",
    "R",
    "RAN",
    "RICH",
    "RICHARD</w>",
    "RO",
    "ROMEO</w>",
    "RY</w>",
    "Ri",
    "Richard</w>",
    "Ro",
    "Rome</w>",
    "Romeo</w>",
    "S",
    "S</w>",
    "SICINIUS</w>",
    "ST",
    "Se",
    "Second</w>",
    "Serv",
    "Sha",
    "Shall</w>",
    "She</w>",
    "Sir</w>",
    "So</w>",
    "T",
    "TH",
    "TI",
    "TIO</w>",
    "Th",
    "Than</w>",
    "That</w>",
    "The</w>",
    "Then</w>",
    "There</w>",
    "They</w>",
    "This</w>",
    "Thou</w>",
    "Thy</w>",
    "Tis</w>",
    "To</w>",
    "U",
    "UCH",
    "UM",
    "US</w>",
    "UT",
    "Un",
    "V",
    "VI</w>",
    "VINCENTIO</w>",
    "VOL",
    "W",
    "WARWICK</w>",
    "War",
    "Warwi",
    "Warwick</w>",
    "We</w>",
    "Well</w>",
    "Wh",
    "What</w>",
    "When</w>",
    "Where</w>",
    "Which</w>",
    "Who</w>",
    "Why</w>",
    "Wi",
    "Will</w>",
    "With</w>",
    "X",
    "Y",
    "Y</w>",
    "YORK</w>",
    "Yet</w>",
    "Yor",
    "York</w>",
    "You</w>",
    "Your</w>",
    "Z",
    "a",
    "a</w>",
    "ab",
    "ac",
    "ad",
    "af",
    "aga",
    "again</w>",
    "against</w>",
    "age</w>",
    "ake</w>",
    "al",
    "al</w>",
    "all</w>",
    "am</w>",
    "an",
    "an</w>",
    "ance</w>",
    "and</w>",
    "ands</w>",
    "ang",
    "ani",
    "ans</w>",
    "ant</w>",
    "any</w>",
    "ap",
    "app",
    "ar",
    "ar</w>",
    "ard</w>",
    "are",
    "are</w>",
    "arewell</w>",
    "art</w>",
    "as",
    "as</w>",
    "at",
    "at</w>",
    "ate</w>",
    "au",
    "away</w>",
    "ay</w>",
    "b",
    "ba",
    "back</w>",
    "bani",
    "be",
    "be</w>",
    "bea",
    "bear</w>",
    "bed</w>",
    "been</w>",
    "before</w>",
    "beg",
    "being</w>",
    "bes",
    "best</w>",
    "better</w>",
    "bi",
    "bid</w>",
    "bl",
    "ble</w>",
    "blood</w>",
    "bo",
    "both</w>",
    "br",
    "bra",
    "brea",
    "bri",
    "bring</w>",
    "bro",
    "brother</w>",
    "bu",
    "bur",
    "but</w>",
    "by</w>",
    "c",
    "c</w>",
    "ca",
    "call</w>",
    "came</w>",
    "can",
    "can</w>",
    "cannot</w>",
    "car",
    "cause</w>",
    "ce",
    "ce</w>",
    "ced</w>",
    "cen",
    "ces",
    "ces</w>",
    "ch",
    "ch</w>",
    "cha",
    "chard</w>",
    "chi",
    "ci",
    "cious</w>",
    "ck",
    "ck</w>",
    "cl",
    "clo",
    "co",
    "com",
    "come</w>",
    "comes</w>",
    "comm",
    "comp",
    "con",
    "cond</w>",
    "cont",
    "cor",
    "cou",
    "could</w>",
    "coun",
    "cour",
    "cr",
    "cra",
    "crown</w>",
    "cu",
    "cur",
    "cy</w>",
    "d",
    "d</w>",
    "da",
    "daughter</w>",
    "day</w>",
    "de",
    "de</w>",
    "dea",
    "dead</w>",
    "dear</w>",
    "death</w>",
    "ded</w>",
    "deed</w>",
    "den</w>",
    "der",
    "der</w>",
    "des",
    "di",
    "did</w>",
    "die</w>",
    "ding</w>",
    "dis",
    "dly</w>",
    "do",
    "do</w>",
    "don</w>",
    "done</w>",
    "doth</w>",
    "dou",
    "down</w>",
    "dr",
    "dra",
    "drea",
    "ds</w>",
    "dst</w>",
    "du",
    "duke</w>",
    "dy</w>",
    "e",
    "e</w>",
    "ea",
    "eace</w>",
    "eak</w>",
    "ear",
    "ear</w>",
    "ears</w>",
    "earth</w>",
    "ec",
    "ect</w>",
    "ed</w>",
    "ee",
    "eech</w>",
    "eeds</w>",
    "een</w>",
    "eep</w>",
    "eet</w>",
    "ef</w>",
    "el",
    "el</w>",
    "elcome</w>",
    "eld</w>",
    "ell</w>",
    "else</w>",
    "ely</w>",
    "en",
    "en</w>",
    "ence</w>",
    "end</w>",
    "ends</w>",
    "ene",
    "ent",
    "ent</w>",
    "er",
    "er</w>",
    "ere",
    "ere</w>",
    "erefore</w>",
    "ers</w>",
    "erv",
    "ery</w>",
    "es",
    "es</w>",
    "ese</w>",
    "ess</w>",
    "est</w>",
    "et</w>",
    "ev",
    "even</w>",
    "ever</w>",
    "every</w>",
    "ex",
    "ey",
    "ey</w>",
    "eyes</w>",
    "f",
    "f</w>",
    "fa",
    "face</w>",
    "fair</w>",
    "father</w>",
    "fe",
    "fe</w>",
    "fear</w>",
    "fel",
    "ff",
    "fi",
    "find</w>",
    "first</w>",
    "fl",
    "fol",
    "foo",
    "for",
    "for</w>",
    "ford</w>",
    "fore</w>",
    "forth</w>",
    "fou",
    "fri",
    "friends</w>",
    "from</w>",
    "ft</w>",
    "fu",
    "ful</w>",
    "g",
    "g</w>",
    "ga",
    "gar",
    "ge",
    "ge</w>",
    "ged</w>",
    "gen",
    "gent",
    "gentle",
    "gentle</w>",
    "ger</w>",
    "get</w>",
    "gh",
    "gh</w>",
    "ght</w>",
    "ghts</w>",
    "gi",
    "give</w>",
    "go",
    "go</w>",
    "gone</w>",
    "good</w>",
    "gra",
    "grace</w>",
    "great</w>",
    "gri",
    "gu",
    "gue</w>",
    "h",
    "h</w>",
    "ha",
    "had</w>",
    "han</w>",
    "hand</w>",
    "hands</w>",
    "har",
    "hast</w>",
    "hat</w>",
    "hath</w>",
    "have</w>",
    "he",
    "he</w>",
    "hea",
    "head</w>",
    "hear",
    "hear</w>",
    "heard</w>",
    "heart</w>",
    "heaven</w>",
    "hel",
    "hence</w>",
    "her",
    "her</w>",
    "here</w>",
    "hi",
    "him</w>",
    "himself</w>",
    "his</w>",
    "hither</w>",
    "ho",
    "hold</w>",
    "home</w>",
    "hon",
    "honour</w>",
    "hope</w>",
    "hor",
    "hou",
    "house</w>",
    "how</w>",
    "hu",
    "husb",
    "husband</w>",
    "i",
    "id</w>",
    "if</w>",
    "ig",
    "ign</w>",
    "il",
    "il</w>",
    "ill</w>",
    "in",
    "in</w>",
    "ince</w>",
    "ind</w>",
    "ine</w>",
    "iness</w>",
    "ing",
    "ing</w>",
    "ings</w>",
    "ink</w>",
    "ins</w>",
    "inst</w>",
    "int</w>",
    "ir",
    "ir</w>",
    "ire</w>",
    "irst</w>",
    "is",
    "is</w>",
    "it",
    "it</w>",
    "ither</w>",
    "iti",
    "ive</w>",
    "j",
    "jo",
    "ju",
    "k",
    "k</w>",
    "ke</w>",
    "keep</w>",
    "kes</w>",
    "king</w>",
    "kn",
    "know</w>",
    "ks</w>",
    "l",
    "l</w>",
    "la",
    "lady</w>",
    "land</w>",
    "ld</w>",
    "le",
    "le</w>",
    "lea",
    "leave</w>",
    "les</w>",
    "less</w>",
    "let</w>",
    "li",
    "lie",
    "lies</w>",
    "life</w>",
    "light</w>",
    "like</w>",
    "little</w>",
    "live</w>",
    "ll",
    "ll</w>",
    "lo",
    "long</w>",
    "look</w>",
    "lor",
    "lord</w>",
    "lords</w>",
    "love</w>",
    "low</w>",
    "ls</w>",
    "lt</w>",
    "ly</w>",
    "m",
    "m</w>",
    "ma",
    "made</w>",
    "make</w>",
    "man</w>",
    "many</w>",
    "mar",
    "master</w>",
    "may</w>",
    "mb",
    "mber</w>",
    "me",
    "me</w>",
    "mea",
    "men",
    "men</w>",
    "ment</w>",
    "mer",
    "mes</w>",
    "mi",
    "might</w>",
    "min",
    "mine</w>",
    "mo",
    "mon",
    "mor",
    "more</w>",
    "morrow</w>",
    "most</w>",
    "mother</w>",
    "mp",
    "ms</w>",
    "mself</w>",
    "mu",
    "much</w>",
    "must</w>",
    "my</w>",
    "myself</w>",
    "n",
    "n</w>",
    "na",
    "name</w>",
    "nat",
    "nd</w>",
    "ne",
    "ne</w>",
    "ness</w>",
    "never</w>",
    "new</w>",
    "news</w>",
    "ng",
    "ni",
    "night</w>",
    "ning</w>",
    "no",
    "no</w>",
    "noble</w>",
    "none</w>",
    "nor</w>",
    "not</w>",
    "nothing</w>",
    "now</w>",
    "ns</w>",
    "o",
    "o</w>",
    "od</w>",
    "of",
    "of</w>",
    "off</w>",
    "ol",
    "old</w>",
    "om</w>",
    "ome</w>",
    "on",
    "on</w>",
    "once</w>",
    "one</w>",
    "ong</w>",
    "ons</w>",
    "oo",
    "ood</w>",
    "ook</w>",
    "op",
    "or",
    "or</w>",
    "ord</w>",
    "ore</w>",
    "ort</w>",
    "ose</w>",
    "other</w>",
    "ou",
    "ough</w>",
    "ould</w>",
    "oun",
    "our",
    "our</w>",
    "ours</w>",
    "ous</w>",
    "out</w>",
    "ow",
    "ow</w>",
    "ower</w>",
    "own</w>",
    "ows</w>",
    "p",
    "p</w>",
    "pa",
    "par",
    "part</w>",
    "pe",
    "pe</w>",
    "peace</w>",
    "peop",
    "people</w>",
    "per",
    "pi",
    "pl",
    "pla",
    "place</w>",
    "plea",
    "po",
    "pon</w>",
    "poor</w>",
    "power</w>",
    "pp",
    "pr",
    "pra",
    "pray</w>",
    "pre",
    "pres",
    "pri",
    "prince</w>",
    "pro",
    "ps</w>",
    "pt</w>",
    "pu",
    "pur",
    "put</w>",
    "qu",
    "queen</w>",
    "qui",
    "r",
    "r</w>",
    "ra",
    "ran",
    "rant</w>",
    "rd</w>",
    "re",
    "re</w>",
    "rea",
    "reat</w>",
    "ree</w>",
    "rep",
    "res",
    "rest</w>",
    "ri",
    "ried</w>",
    "right</w>",
    "ro",
    "rou",
    "row</w>",
    "roy",
    "ru",
    "ry</w>",
    "s",
    "s</w>",
    "sa",
    "said</w>",
    "say</w>",
    "sb",
    "se",
    "se</w>",
    "sea",
    "sed</w>",
    "see",
    "see</w>",
    "sel",
    "self</w>",
    "sen",
    "ser",
    "ses</w>",
    "set</w>",
    "sh",
    "sh</w>",
    "sha",
    "shall</w>",
    "she</w>",
    "shi",
    "should</w>",
    "show</w>",
    "si",
    "sin</w>",
    "sing</w>",
    "sion</w>",
    "sir</w>",
    "sl",
    "sla",
    "so",
    "so</w>",
    "sol",
    "some</w>",
    "son</w>",
    "sor",
    "sou",
    "soul</w>",
    "sp",
    "speak</w>",
    "ss</w>",
    "st",
    "st</w>",
    "stand</w>",
    "stay</w>",
    "ster</w>",
    "sti",
    "still</w>",
    "str",
    "su",
    "sub",
    "such</w>",
    "sur",
    "sure</w>",
    "sw",
    "sweet</w>",
    "t",
    "t</w>",
    "ta",
    "tain</w>",
    "take</w>",
    "tch</w>",
    "te",
    "te</w>",
    "ted</w>",
    "tell</w>",
    "ten",
    "ten</w>",
    "ter",
    "ter</w>",
    "th",
    "th</w>",
    "than",
    "than</w>",
    "that</w>",
    "the",
    "the</w>",
    "thee</w>",
    "their</w>",
    "them</w>",
    "then</w>",
    "ther</w>",
    "there</w>",
    "therefore</w>",
    "these</w>",
    "they</w>",
    "thine</w>",
    "thing</w>",
    "think</w>",
    "this</w>",
    "those</w>",
    "thou",
    "thou</w>",
    "though</w>",
    "thought</w>",
    "thus</w>",
    "thy</w>",
    "ti",
    "till</w>",
    "time</w>",
    "ting</w>",
    "tion</w>",
    "tis</w>",
    "tly</w>",
    "to",
    "to</w>",
    "ton",
    "tongue</w>",
    "too</w>",
    "tor",
    "tra",
    "tri",
    "tru",
    "true</w>",
    "ts</w>",
    "tt",
    "tter</w>",
    "ttle</w>",
    "tu",
    "tun",
    "tune</w>",
    "tur",
    "turn</w>",
    "tw",
    "two</w>",
    "ty</w>",
    "u",
    "ugh",
    "ughter</w>",
    "un",
    "unto</w>",
    "up</w>",
    "upon</w>",
    "ur",
    "ur</w>",
    "ure</w>",
    "urse</w>",
    "us</w>",
    "use</w>",
    "ut</w>",
    "v",
    "ve</w>",
    "ved</w>",
    "ven",
    "ven</w>",
    "ver",
    "ver</w>",
    "very</w>",
    "ves</w>",
    "vi",
    "ving</w>",
    "vo",
    "w",
    "w</w>",
    "wa",
    "war",
    "ward</w>",
    "was</w>",
    "wat",
    "way</w>",
    "we</w>",
    "well</w>",
    "were</w>",
    "wh",
    "what</w>",
    "when</w>",
    "where</w>",
    "whi",
    "which</w>",
    "who</w>",
    "why</w>",
    "wi",
    "wife</w>",
    "will</w>",
    "with",
    "with</w>",
    "wo",
    "wor",
    "word</w>",
    "words</w>",
    "world</w>",
    "would</w>",
    "wr",
    "ws</w>",
    "x",
    "y",
    "y</w>",
    "yet</w>",
    "you",
    "you</w>",
    "youn",
    "young</w>",
    "your",
    "your</w>",
    "ys</w>",
    "yself</w>",
    "z"
  ]
}